const unsigned char model_data[] = {
  0x1c, 0x0, 0x0, 0x0, 0x54, 0x46, 0x4c, 0x33, 0x14, 0x0, 0x20, 0x0,
  0x1c, 0x0, 0x18, 0x0, 0x14, 0x0, 0x10, 0x0, 0xc, 0x0, 0x0, 0x0,
  0x8, 0x0, 0x4, 0x0, 0x14, 0x0, 0x0, 0x0, 0x1c, 0x0, 0x0, 0x0,
  0x98, 0x0, 0x0, 0x0, 0xf0, 0x0, 0x0, 0x0, 0x9c, 0x5, 0x0, 0x0,
  0xac, 0x5, 0x0, 0x0, 0xbc, 0xb, 0x0, 0x0, 0x3, 0x0, 0x0, 0x0,
  0x1, 0x0, 0x0, 0x0, 0x10, 0x0, 0x0, 0x0, 0x0, 0x0, 0xa, 0x0,
  0x10, 0x0, 0xc, 0x0, 0x8, 0x0, 0x4, 0x0, 0xa, 0x0, 0x0, 0x0,
  0xc, 0x0, 0x0, 0x0, 0x1c, 0x0, 0x0, 0x0, 0x3c, 0x0, 0x0, 0x0,
  0xf, 0x0, 0x0, 0x0, 0x73, 0x65, 0x72, 0x76, 0x69, 0x6e, 0x67, 0x5f,
  0x64, 0x65, 0x66, 0x61, 0x75, 0x6c, 0x74, 0x0, 0x1, 0x0, 0x0, 0x0,
  0x4, 0x0, 0x0, 0x0, 0x90, 0xff, 0xff, 0xff, 0xa, 0x0, 0x0, 0x0,
  0x4, 0x0, 0x0, 0x0, 0x8, 0x0, 0x0, 0x0, 0x6f, 0x75, 0x74, 0x70,
  0x75, 0x74, 0x5f, 0x30, 0x0, 0x0, 0x0, 0x0, 0x1, 0x0, 0x0, 0x0,
  0x4, 0x0, 0x0, 0x0, 0x4a, 0xfa, 0xff, 0xff, 0x4, 0x0, 0x0, 0x0,
  0xf, 0x0, 0x0, 0x0, 0x6b, 0x65, 0x72, 0x61, 0x73, 0x5f, 0x74, 0x65,
  0x6e, 0x73, 0x6f, 0x72, 0x5f, 0x31, 0x32, 0x0, 0x2, 0x0, 0x0, 0x0,
  0x34, 0x0, 0x0, 0x0, 0x4, 0x0, 0x0, 0x0, 0xdc, 0xff, 0xff, 0xff,
  0xd, 0x0, 0x0, 0x0, 0x4, 0x0, 0x0, 0x0, 0x13, 0x0, 0x0, 0x0,
  0x43, 0x4f, 0x4e, 0x56, 0x45, 0x52, 0x53, 0x49, 0x4f, 0x4e, 0x5f, 0x4d,
  0x45, 0x54, 0x41, 0x44, 0x41, 0x54, 0x41, 0x0, 0x8, 0x0, 0xc, 0x0,
  0x8, 0x0, 0x4, 0x0, 0x8, 0x0, 0x0, 0x0, 0xc, 0x0, 0x0, 0x0,
  0x4, 0x0, 0x0, 0x0, 0x13, 0x0, 0x0, 0x0, 0x6d, 0x69, 0x6e, 0x5f,
  0x72, 0x75, 0x6e, 0x74, 0x69, 0x6d, 0x65, 0x5f, 0x76, 0x65, 0x72, 0x73,
  0x69, 0x6f, 0x6e, 0x0, 0xe, 0x0, 0x0, 0x0, 0xa8, 0x4, 0x0, 0x0,
  0xa0, 0x4, 0x0, 0x0, 0x30, 0x4, 0x0, 0x0, 0x20, 0x2, 0x0, 0x0,
  0xf0, 0x1, 0x0, 0x0, 0xd4, 0x1, 0x0, 0x0, 0x84, 0x1, 0x0, 0x0,
  0xb4, 0x0, 0x0, 0x0, 0xac, 0x0, 0x0, 0x0, 0xa4, 0x0, 0x0, 0x0,
  0x9c, 0x0, 0x0, 0x0, 0x94, 0x0, 0x0, 0x0, 0x74, 0x0, 0x0, 0x0,
  0x4, 0x0, 0x0, 0x0, 0xfe, 0xfa, 0xff, 0xff, 0x4, 0x0, 0x0, 0x0,
  0x60, 0x0, 0x0, 0x0, 0x10, 0x0, 0x0, 0x0, 0x0, 0x0, 0x0, 0x0,
  0x8, 0x0, 0xe, 0x0, 0x8, 0x0, 0x4, 0x0, 0x8, 0x0, 0x0, 0x0,
  0x10, 0x0, 0x0, 0x0, 0x24, 0x0, 0x0, 0x0, 0x0, 0x0, 0x6, 0x0,
  0x8, 0x0, 0x4, 0x0, 0x6, 0x0, 0x0, 0x0, 0x4, 0x0, 0x0, 0x0,
  0x0, 0x0, 0x0, 0x0, 0xc, 0x0, 0x18, 0x0, 0x14, 0x0, 0x10, 0x0,
  0xc, 0x0, 0x4, 0x0, 0xc, 0x0, 0x0, 0x0, 0x83, 0x89, 0xb4, 0x71,
  0x78, 0xd1, 0x2b, 0x57, 0x2, 0x0, 0x0, 0x0, 0x2, 0x0, 0x0, 0x0,
  0x4, 0x0, 0x0, 0x0, 0x6, 0x0, 0x0, 0x0, 0x32, 0x2e, 0x31, 0x39,
  0x2e, 0x30, 0x0, 0x0, 0x6a, 0xfb, 0xff, 0xff, 0x4, 0x0, 0x0, 0x0,
  0x10, 0x0, 0x0, 0x0, 0x31, 0x2e, 0x35, 0x2e, 0x30, 0x0, 0x0, 0x0,
  0x0, 0x0, 0x0, 0x0, 0x0, 0x0, 0x0, 0x0, 0x28, 0xf6, 0xff, 0xff,
  0x2c, 0xf6, 0xff, 0xff, 0x30, 0xf6, 0xff, 0xff, 0x34, 0xf6, 0xff, 0xff,
  0x96, 0xfb, 0xff, 0xff, 0x4, 0x0, 0x0, 0x0, 0xc0, 0x0, 0x0, 0x0,
  0xb8, 0x8e, 0x56, 0xbe, 0x52, 0x75, 0x56, 0xbe, 0xe0, 0xcb, 0x92, 0x3e,
  0xf0, 0x63, 0x38, 0x3f, 0xc7, 0x3, 0xda, 0xbe, 0x6a, 0x69, 0x17, 0x3f,
  0x40, 0xc3, 0x88, 0x3c, 0x9b, 0xc2, 0xbb, 0xbe, 0x93, 0x78, 0x9e, 0xbe,
  0x8, 0xa, 0x57, 0xbe, 0x70, 0x2c, 0x3d, 0x3d, 0x86, 0xd7, 0xb7, 0xbe,
  0xa0, 0x42, 0x97, 0xbe, 0x17, 0xb9, 0x77, 0x3e, 0xc4, 0x1e, 0x80, 0xbd,
  0xa1, 0xdd, 0x83, 0xbe, 0x87, 0xf7, 0x57, 0x3e, 0x4e, 0x20, 0x4c, 0xbe,
  0x40, 0x12, 0x33, 0xbc, 0x45, 0x65, 0x82, 0xbe, 0x0, 0xb2, 0xc6, 0xbe,
  0x38, 0xcb, 0xc9, 0x3d, 0xd4, 0xb7, 0xc5, 0xbe, 0x78, 0x4a, 0x4, 0xbf,
  0xde, 0xfe, 0xe1, 0xbe, 0x20, 0x95, 0x1c, 0xbe, 0x76, 0xff, 0x2c, 0xbe,
  0x87, 0x61, 0x75, 0x3f, 0x50, 0xbd, 0x2, 0xbf, 0x4d, 0x15, 0xed, 0x3e,
  0x6f, 0xd6, 0xfd, 0xbe, 0xa0, 0x81, 0x1f, 0xbd, 0xa2, 0xe6, 0x9a, 0x3e,
  0x6c, 0xcc, 0x37, 0xbe, 0xe6, 0xfc, 0x75, 0x3f, 0xee, 0xb5, 0xec, 0x3e,
  0x8, 0xa0, 0xe6, 0xbd, 0xd6, 0x31, 0xaa, 0xbe, 0xf4, 0xb1, 0x24, 0x3e,
  0x0, 0xd0, 0xdc, 0xbb, 0xb0, 0xd, 0x65, 0xbd, 0x7a, 0xb8, 0x79, 0xbe,
  0x6e, 0xb1, 0xe1, 0xbe, 0xc0, 0xa8, 0x42, 0x3f, 0x0, 0x21, 0xe1, 0x3e,
  0x8c, 0x64, 0xc8, 0xbe, 0x30, 0xf9, 0x5a, 0x3d, 0x48, 0xb, 0x92, 0x3e,
  0x62, 0xfc, 0xff, 0xff, 0x4, 0x0, 0x0, 0x0, 0x40, 0x0, 0x0, 0x0,
  0x0, 0x0, 0x0, 0x0, 0x18, 0xa6, 0x48, 0x3d, 0x0, 0x0, 0x0, 0x0,
  0x0, 0x0, 0x0, 0x0, 0xbd, 0x9b, 0x9f, 0xbd, 0x80, 0xa7, 0x15, 0xbd,
  0x0, 0x0, 0x0, 0x0, 0x0, 0x0, 0x0, 0x0, 0x0, 0x0, 0x0, 0x0,
  0x7f, 0x4, 0x3, 0x3e, 0x0, 0x0, 0x0, 0x0, 0x4c, 0x1e, 0x54, 0xbd,
  0x0, 0x0, 0x0, 0x0, 0x0, 0x0, 0x0, 0x0, 0x24, 0x7, 0xf2, 0xbc,
  0x0, 0x0, 0x0, 0x0, 0xae, 0xfc, 0xff, 0xff, 0x4, 0x0, 0x0, 0x0,
  0xc, 0x0, 0x0, 0x0, 0x2f, 0x57, 0xf1, 0x3b, 0x39, 0xa3, 0xa8, 0xbd,
  0xa1, 0x4f, 0xa6, 0x3d, 0xc6, 0xfc, 0xff, 0xff, 0x4, 0x0, 0x0, 0x0,
  0x20, 0x0, 0x0, 0x0, 0x30, 0x5a, 0x5e, 0xbd, 0x53, 0xb5, 0xc, 0x3c,
  0x32, 0x6d, 0x74, 0x3d, 0xee, 0xf8, 0xbd, 0xbc, 0x0, 0x0, 0x0, 0x0,
  0xf1, 0xa, 0x2a, 0x3d, 0x4f, 0xc, 0xb3, 0x3c, 0xd3, 0xb8, 0x30, 0x3e,
  0xf2, 0xfc, 0xff, 0xff, 0x4, 0x0, 0x0, 0x0, 0x0, 0x2, 0x0, 0x0,
  0xf8, 0xe2, 0xdb, 0xbe, 0x6d, 0xfc, 0xc, 0x3e, 0xd4, 0x8d, 0xfe, 0x3e,
  0x28, 0x3a, 0x12, 0xbe, 0x10, 0xb9, 0xf4, 0xbd, 0x38, 0xc0, 0x62, 0x3e,
  0x30, 0x52, 0xda, 0xbe, 0x50, 0xb6, 0x78, 0xbe, 0xc8, 0xb9, 0x68, 0x3e,
  0xbe, 0x7d, 0xa0, 0x3e, 0x0, 0x45, 0x8, 0x3d, 0xc8, 0x26, 0xd7, 0xbe,
  0xec, 0x7e, 0xd6, 0x3e, 0xa0, 0x8f, 0x97, 0xbe, 0xa2, 0xc0, 0xf1, 0xbe,
  0xc0, 0xd, 0x87, 0x3c, 0xec, 0x10, 0xca, 0xbe, 0xf2, 0x73, 0x35, 0xbf,
  0xfc, 0xda, 0xb0, 0xbe, 0xbc, 0x87, 0xb0, 0xbe, 0xe8, 0x63, 0xe4, 0x3c,
  0x78, 0xe9, 0xc9, 0x3e, 0xd0, 0xd3, 0x97, 0x3d, 0x84, 0x28, 0xeb, 0xbe,
  0x0, 0x7c, 0x8d, 0xbb, 0xec, 0x94, 0xae, 0xbd, 0x88, 0x53, 0x54, 0x3e,
  0x87, 0x2d, 0x7, 0x3f, 0x44, 0xa2, 0xae, 0xbe, 0x10, 0x82, 0x35, 0x3e,
  0x7b, 0x38, 0x26, 0x3f, 0x8c, 0x4c, 0x84, 0x3e, 0x80, 0x6a, 0x47, 0x3e,
  0xb5, 0xa4, 0x5b, 0x3f, 0xd8, 0x30, 0xe8, 0xbe, 0x20, 0x46, 0xca, 0xbe,
  0x54, 0xd9, 0x5b, 0x3e, 0xd, 0xce, 0xdc, 0x3e, 0x48, 0x4d, 0xb0, 0xbe,
  0xa0, 0x6c, 0xd6, 0x3d, 0xd0, 0x38, 0xfc, 0xbd, 0xc4, 0x60, 0x73, 0x3f,
  0xbc, 0x5b, 0xca, 0xbe, 0x54, 0xd3, 0x59, 0xbe, 0x78, 0x9c, 0x84, 0xbe,
  0xf0, 0x33, 0xa1, 0xbe, 0x31, 0x20, 0x89, 0xbe, 0xa0, 0x33, 0x19, 0x3d,
  0x70, 0xa3, 0xfb, 0xbe, 0x75, 0xd9, 0xcd, 0x3d, 0x30, 0x98, 0x68, 0xbe,
  0x18, 0x67, 0x3c, 0x3e, 0x28, 0x7c, 0x36, 0xbe, 0x5c, 0x7d, 0xc4, 0xbe,
  0xb0, 0xeb, 0xa7, 0xbe, 0x0, 0xdd, 0xd4, 0xbc, 0x1c, 0x3b, 0xed, 0x3e,
  0x87, 0x56, 0xc9, 0xbd, 0xdc, 0x0, 0xd9, 0x3e, 0xeb, 0x33, 0x1e, 0xbe,
  0x3c, 0x1d, 0xd7, 0xbe, 0x98, 0x32, 0x8, 0x3e, 0x35, 0x7, 0x89, 0x3e,
  0x9c, 0xd8, 0xee, 0xbe, 0xc0, 0xf0, 0xae, 0xbd, 0xf8, 0xb8, 0x39, 0xbe,
  0x60, 0xbb, 0xb5, 0x3d, 0x30, 0x6, 0xa5, 0x3e, 0x0, 0x9a, 0xf, 0xbb,
  0xd8, 0x33, 0x15, 0xbe, 0xe0, 0x1c, 0xe4, 0xbd, 0xd0, 0x6f, 0x8e, 0xbe,
  0x60, 0x90, 0x4d, 0x3d, 0x40, 0x16, 0x30, 0x3e, 0x10, 0x6c, 0xdc, 0x3d,
  0x90, 0x48, 0x8c, 0xbe, 0x48, 0xc2, 0x92, 0xbe, 0xac, 0x80, 0x8e, 0xbe,
  0x20, 0x73, 0xb5, 0xbd, 0x10, 0x86, 0xa1, 0x3e, 0xe4, 0xa0, 0xcb, 0xbe,
  0x41, 0xf6, 0x5c, 0x3f, 0xcc, 0xd3, 0x94, 0xbe, 0x0, 0x7f, 0x9c, 0x3c,
  0xf4, 0x5b, 0xdd, 0x3e, 0x2a, 0x3f, 0xad, 0x3e, 0xa8, 0xbb, 0x2d, 0xbe,
  0x60, 0xb1, 0x9e, 0xbe, 0xc, 0x15, 0xbf, 0xbe, 0x68, 0xca, 0x59, 0x3f,
  0xa0, 0x67, 0x76, 0x3d, 0x8, 0x88, 0xf, 0xbe, 0x98, 0x17, 0x81, 0xbe,
  0x20, 0x1e, 0x9c, 0xbd, 0x7b, 0xaa, 0xea, 0xbe, 0x20, 0x21, 0xb6, 0xbd,
  0xb0, 0x21, 0x3e, 0x3e, 0x3, 0x26, 0xd8, 0xbe, 0xcc, 0xcf, 0xd8, 0xbe,
  0xb8, 0xcf, 0xe2, 0x3e, 0xdb, 0x78, 0x5a, 0xbd, 0x74, 0xc6, 0xe2, 0xbe,
  0x48, 0xcb, 0xa5, 0xbe, 0x40, 0xc7, 0x44, 0xbd, 0x14, 0x3c, 0xc7, 0x3e,
  0x8a, 0xb2, 0xa7, 0xbe, 0xf0, 0x5f, 0x9e, 0xbd, 0xa1, 0x8f, 0x34, 0x3f,
  0xb4, 0x6d, 0x97, 0x3e, 0x8, 0x75, 0xed, 0xbe, 0xc5, 0x52, 0x6e, 0x3f,
  0x90, 0x7d, 0xea, 0x3e, 0x60, 0xc9, 0xf2, 0x3d, 0x4e, 0x2e, 0xdd, 0x3e,
  0x20, 0xe0, 0x5c, 0x3e, 0x24, 0x65, 0xec, 0x3e, 0x68, 0xdb, 0x72, 0x3e,
  0xe0, 0xba, 0x35, 0x3d, 0xe4, 0x12, 0xc8, 0xbe, 0x40, 0xb0, 0x64, 0xbe,
  0x24, 0x91, 0x87, 0x3e, 0x7d, 0x22, 0x40, 0x3f, 0xe4, 0x19, 0xe5, 0x3e,
  0x4d, 0xf4, 0xe1, 0xbe, 0xf0, 0xc7, 0x7e, 0x3e, 0xb8, 0xa0, 0xb2, 0xbe,
  0xd5, 0xeb, 0xb0, 0xbe, 0x24, 0xe7, 0xfd, 0x3e, 0xfe, 0xfe, 0xff, 0xff,
  0x4, 0x0, 0x0, 0x0, 0x60, 0x0, 0x0, 0x0, 0x9a, 0xd5, 0xf9, 0x3e,
  0x2, 0x4d, 0x2d, 0x3f, 0xd2, 0xba, 0x42, 0xbf, 0xb5, 0x4d, 0xdc, 0xbd,
  0xc8, 0x5a, 0x9d, 0x3d, 0x16, 0xd3, 0x8a, 0xbf, 0xa1, 0x8, 0x28, 0xbe,
  0xe5, 0x25, 0xc7, 0xbd, 0xd6, 0x9e, 0xd1, 0xbd, 0x1f, 0x8, 0x64, 0xbe,
  0xea, 0xd5, 0x67, 0x3d, 0x10, 0x56, 0x62, 0xbe, 0x5f, 0xc8, 0x1f, 0x3f,
  0x2d, 0xb3, 0xb, 0x3e, 0xd7, 0x4e, 0x79, 0x3e, 0xe9, 0xcf, 0xaf, 0xbf,
  0x69, 0x5b, 0xbb, 0x3e, 0x7e, 0x40, 0x3f, 0xbf, 0x53, 0x2d, 0x6a, 0x3f,
  0xbb, 0xf1, 0x9, 0x3d, 0xf0, 0x96, 0x3a, 0x3e, 0xf, 0xe0, 0x92, 0x3f,
  0xb7, 0x78, 0xa6, 0xbf, 0x76, 0xa7, 0xa8, 0x3f, 0xc, 0xfa, 0xff, 0xff,
  0x10, 0xfa, 0xff, 0xff, 0xf, 0x0, 0x0, 0x0, 0x4d, 0x4c, 0x49, 0x52,
  0x20, 0x43, 0x6f, 0x6e, 0x76, 0x65, 0x72, 0x74, 0x65, 0x64, 0x2e, 0x0,
  0x1, 0x0, 0x0, 0x0, 0x14, 0x0, 0x0, 0x0, 0x0, 0x0, 0xe, 0x0,
  0x18, 0x0, 0x14, 0x0, 0x10, 0x0, 0xc, 0x0, 0x8, 0x0, 0x4, 0x0,
  0xe, 0x0, 0x0, 0x0, 0x14, 0x0, 0x0, 0x0, 0x1c, 0x0, 0x0, 0x0,
  0x34, 0x1, 0x0, 0x0, 0x38, 0x1, 0x0, 0x0, 0x3c, 0x1, 0x0, 0x0,
  0x4, 0x0, 0x0, 0x0, 0x6d, 0x61, 0x69, 0x6e, 0x0, 0x0, 0x0, 0x0,
  0x4, 0x0, 0x0, 0x0, 0xdc, 0x0, 0x0, 0x0, 0x94, 0x0, 0x0, 0x0,
  0x50, 0x0, 0x0, 0x0, 0x14, 0x0, 0x0, 0x0, 0x0, 0x0, 0xe, 0x0,
  0x1a, 0x0, 0x14, 0x0, 0x10, 0x0, 0xc, 0x0, 0xb, 0x0, 0x4, 0x0,
  0xe, 0x0, 0x0, 0x0, 0x1c, 0x0, 0x0, 0x0, 0x0, 0x0, 0x0, 0x9,
  0x1c, 0x0, 0x0, 0x0, 0x20, 0x0, 0x0, 0x0, 0x1, 0x0, 0x0, 0x0,
  0x0, 0x0, 0x6, 0x0, 0x8, 0x0, 0x4, 0x0, 0x6, 0x0, 0x0, 0x0,
  0x0, 0x0, 0x80, 0x3f, 0x1, 0x0, 0x0, 0x0, 0xa, 0x0, 0x0, 0x0,
  0x1, 0x0, 0x0, 0x0, 0x9, 0x0, 0x0, 0x0, 0xce, 0xff, 0xff, 0xff,
  0x10, 0x0, 0x0, 0x0, 0x0, 0x0, 0x0, 0x8, 0xc, 0x0, 0x0, 0x0,
  0x10, 0x0, 0x0, 0x0, 0xd4, 0xfa, 0xff, 0xff, 0x1, 0x0, 0x0, 0x0,
  0x9, 0x0, 0x0, 0x0, 0x3, 0x0, 0x0, 0x0, 0x8, 0x0, 0x0, 0x0,
  0x1, 0x0, 0x0, 0x0, 0x4, 0x0, 0x0, 0x0, 0x0, 0x0, 0xe, 0x0,
  0x14, 0x0, 0x0, 0x0, 0x10, 0x0, 0xc, 0x0, 0xb, 0x0, 0x4, 0x0,
  0xe, 0x0, 0x0, 0x0, 0x10, 0x0, 0x0, 0x0, 0x0, 0x0, 0x0, 0x8,
  0x10, 0x0, 0x0, 0x0, 0x14, 0x0, 0x0, 0x0, 0xba, 0xff, 0xff, 0xff,
  0x0, 0x0, 0x0, 0x1, 0x1, 0x0, 0x0, 0x0, 0x8, 0x0, 0x0, 0x0,
  0x3, 0x0, 0x0, 0x0, 0x7, 0x0, 0x0, 0x0, 0x2, 0x0, 0x0, 0x0,
  0x3, 0x0, 0x0, 0x0, 0x0, 0x0, 0xe, 0x0, 0x16, 0x0, 0x0, 0x0,
  0x10, 0x0, 0xc, 0x0, 0xb, 0x0, 0x4, 0x0, 0xe, 0x0, 0x0, 0x0,
  0x18, 0x0, 0x0, 0x0, 0x0, 0x0, 0x0, 0x8, 0x18, 0x0, 0x0, 0x0,
  0x1c, 0x0, 0x0, 0x0, 0x0, 0x0, 0x6, 0x0, 0x8, 0x0, 0x7, 0x0,
  0x6, 0x0, 0x0, 0x0, 0x0, 0x0, 0x0, 0x1, 0x1, 0x0, 0x0, 0x0,
  0x7, 0x0, 0x0, 0x0, 0x3, 0x0, 0x0, 0x0, 0x0, 0x0, 0x0, 0x0,
  0x6, 0x0, 0x0, 0x0, 0x5, 0x0, 0x0, 0x0, 0x1, 0x0, 0x0, 0x0,
  0xa, 0x0, 0x0, 0x0, 0x1, 0x0, 0x0, 0x0, 0x0, 0x0, 0x0, 0x0,
  0xb, 0x0, 0x0, 0x0, 0x44, 0x4, 0x0, 0x0, 0xec, 0x3, 0x0, 0x0,
  0x94, 0x3, 0x0, 0x0, 0x34, 0x3, 0x0, 0x0, 0xd4, 0x2, 0x0, 0x0,
  0x78, 0x2, 0x0, 0x0, 0x28, 0x2, 0x0, 0x0, 0x88, 0x1, 0x0, 0x0,
  0xe4, 0x0, 0x0, 0x0, 0x60, 0x0, 0x0, 0x0, 0x4, 0x0, 0x0, 0x0,
  0xfe, 0xfb, 0xff, 0xff, 0x0, 0x0, 0x0, 0x1, 0x14, 0x0, 0x0, 0x0,
  0x1c, 0x0, 0x0, 0x0, 0x1c, 0x0, 0x0, 0x0, 0xb, 0x0, 0x0, 0x0,
  0x34, 0x0, 0x0, 0x0, 0x2, 0x0, 0x0, 0x0, 0xff, 0xff, 0xff, 0xff,
  0x3, 0x0, 0x0, 0x0, 0xe8, 0xfb, 0xff, 0xff, 0x1b, 0x0, 0x0, 0x0,
  0x53, 0x74, 0x61, 0x74, 0x65, 0x66, 0x75, 0x6c, 0x50, 0x61, 0x72, 0x74,
  0x69, 0x74, 0x69, 0x6f, 0x6e, 0x65, 0x64, 0x43, 0x61, 0x6c, 0x6c, 0x5f,
  0x31, 0x3a, 0x30, 0x0, 0x2, 0x0, 0x0, 0x0, 0x1, 0x0, 0x0, 0x0,
  0x3, 0x0, 0x0, 0x0, 0x56, 0xfc, 0xff, 0xff, 0x0, 0x0, 0x0, 0x1,
  0x14, 0x0, 0x0, 0x0, 0x1c, 0x0, 0x0, 0x0, 0x1c, 0x0, 0x0, 0x0,
  0xa, 0x0, 0x0, 0x0, 0x5c, 0x0, 0x0, 0x0, 0x2, 0x0, 0x0, 0x0,
  0xff, 0xff, 0xff, 0xff, 0x3, 0x0, 0x0, 0x0, 0x40, 0xfc, 0xff, 0xff,
  0x42, 0x0, 0x0, 0x0, 0x73, 0x65, 0x71, 0x75, 0x65, 0x6e, 0x74, 0x69,
  0x61, 0x6c, 0x5f, 0x33, 0x5f, 0x31, 0x2f, 0x64, 0x65, 0x6e, 0x73, 0x65,
  0x5f, 0x31, 0x31, 0x5f, 0x31, 0x2f, 0x4d, 0x61, 0x74, 0x4d, 0x75, 0x6c,
  0x3b, 0x73, 0x65, 0x71, 0x75, 0x65, 0x6e, 0x74, 0x69, 0x61, 0x6c, 0x5f,
  0x33, 0x5f, 0x31, 0x2f, 0x64, 0x65, 0x6e, 0x73, 0x65, 0x5f, 0x31, 0x31,
  0x5f, 0x31, 0x2f, 0x42, 0x69, 0x61, 0x73, 0x41, 0x64, 0x64, 0x0, 0x0,
  0x2, 0x0, 0x0, 0x0, 0x1, 0x0, 0x0, 0x0, 0x3, 0x0, 0x0, 0x0,
  0xd6, 0xfc, 0xff, 0xff, 0x0, 0x0, 0x0, 0x1, 0x14, 0x0, 0x0, 0x0,
  0x1c, 0x0, 0x0, 0x0, 0x1c, 0x0, 0x0, 0x0, 0x9, 0x0, 0x0, 0x0,
  0x7c, 0x0, 0x0, 0x0, 0x2, 0x0, 0x0, 0x0, 0xff, 0xff, 0xff, 0xff,
  0x8, 0x0, 0x0, 0x0, 0xc0, 0xfc, 0xff, 0xff, 0x61, 0x0, 0x0, 0x0,
  0x73, 0x65, 0x71, 0x75, 0x65, 0x6e, 0x74, 0x69, 0x61, 0x6c, 0x5f, 0x33,
  0x5f, 0x31, 0x2f, 0x64, 0x65, 0x6e, 0x73, 0x65, 0x5f, 0x31, 0x30, 0x5f,
  0x31, 0x2f, 0x4d, 0x61, 0x74, 0x4d, 0x75, 0x6c, 0x3b, 0x73, 0x65, 0x71,
  0x75, 0x65, 0x6e, 0x74, 0x69, 0x61, 0x6c, 0x5f, 0x33, 0x5f, 0x31, 0x2f,
  0x64, 0x65, 0x6e, 0x73, 0x65, 0x5f, 0x31, 0x30, 0x5f, 0x31, 0x2f, 0x52,
  0x65, 0x6c, 0x75, 0x3b, 0x73, 0x65, 0x71, 0x75, 0x65, 0x6e, 0x74, 0x69,
  0x61, 0x6c, 0x5f, 0x33, 0x5f, 0x31, 0x2f, 0x64, 0x65, 0x6e, 0x73, 0x65,
  0x5f, 0x31, 0x30, 0x5f, 0x31, 0x2f, 0x42, 0x69, 0x61, 0x73, 0x41, 0x64,
  0x64, 0x0, 0x0, 0x0, 0x2, 0x0, 0x0, 0x0, 0x1, 0x0, 0x0, 0x0,
  0x8, 0x0, 0x0, 0x0, 0x76, 0xfd, 0xff, 0xff, 0x0, 0x0, 0x0, 0x1,
  0x14, 0x0, 0x0, 0x0, 0x1c, 0x0, 0x0, 0x0, 0x1c, 0x0, 0x0, 0x0,
  0x8, 0x0, 0x0, 0x0, 0x78, 0x0, 0x0, 0x0, 0x2, 0x0, 0x0, 0x0,
  0xff, 0xff, 0xff, 0xff, 0x10, 0x0, 0x0, 0x0, 0x60, 0xfd, 0xff, 0xff,
  0x5e, 0x0, 0x0, 0x0, 0x73, 0x65, 0x71, 0x75, 0x65, 0x6e, 0x74, 0x69,
  0x61, 0x6c, 0x5f, 0x33, 0x5f, 0x31, 0x2f, 0x64, 0x65, 0x6e, 0x73, 0x65,
  0x5f, 0x39, 0x5f, 0x31, 0x2f, 0x4d, 0x61, 0x74, 0x4d, 0x75, 0x6c, 0x3b,
  0x73, 0x65, 0x71, 0x75, 0x65, 0x6e, 0x74, 0x69, 0x61, 0x6c, 0x5f, 0x33,
  0x5f, 0x31, 0x2f, 0x64, 0x65, 0x6e, 0x73, 0x65, 0x5f, 0x39, 0x5f, 0x31,
  0x2f, 0x52, 0x65, 0x6c, 0x75, 0x3b, 0x73, 0x65, 0x71, 0x75, 0x65, 0x6e,
  0x74, 0x69, 0x61, 0x6c, 0x5f, 0x33, 0x5f, 0x31, 0x2f, 0x64, 0x65, 0x6e,
  0x73, 0x65, 0x5f, 0x39, 0x5f, 0x31, 0x2f, 0x42, 0x69, 0x61, 0x73, 0x41,
  0x64, 0x64, 0x0, 0x0, 0x2, 0x0, 0x0, 0x0, 0x1, 0x0, 0x0, 0x0,
  0x10, 0x0, 0x0, 0x0, 0x66, 0xfe, 0xff, 0xff, 0x0, 0x0, 0x0, 0x1,
  0x10, 0x0, 0x0, 0x0, 0x10, 0x0, 0x0, 0x0, 0x7, 0x0, 0x0, 0x0,
  0x2c, 0x0, 0x0, 0x0, 0xec, 0xfd, 0xff, 0xff, 0x1f, 0x0, 0x0, 0x0,
  0x73, 0x65, 0x71, 0x75, 0x65, 0x6e, 0x74, 0x69, 0x61, 0x6c, 0x5f, 0x33,
  0x5f, 0x31, 0x2f, 0x64, 0x65, 0x6e, 0x73, 0x65, 0x5f, 0x39, 0x5f, 0x31,
  0x2f, 0x4d, 0x61, 0x74, 0x4d, 0x75, 0x6c, 0x0, 0x2, 0x0, 0x0, 0x0,
  0x10, 0x0, 0x0, 0x0, 0x3, 0x0, 0x0, 0x0, 0xb2, 0xfe, 0xff, 0xff,
  0x0, 0x0, 0x0, 0x1, 0x10, 0x0, 0x0, 0x0, 0x10, 0x0, 0x0, 0x0,
  0x6, 0x0, 0x0, 0x0, 0x3c, 0x0, 0x0, 0x0, 0x38, 0xfe, 0xff, 0xff,
  0x2f, 0x0, 0x0, 0x0, 0x73, 0x65, 0x71, 0x75, 0x65, 0x6e, 0x74, 0x69,
  0x61, 0x6c, 0x5f, 0x33, 0x5f, 0x31, 0x2f, 0x64, 0x65, 0x6e, 0x73, 0x65,
  0x5f, 0x39, 0x5f, 0x31, 0x2f, 0x42, 0x69, 0x61, 0x73, 0x41, 0x64, 0x64,
  0x2f, 0x52, 0x65, 0x61, 0x64, 0x56, 0x61, 0x72, 0x69, 0x61, 0x62, 0x6c,
  0x65, 0x4f, 0x70, 0x0, 0x1, 0x0, 0x0, 0x0, 0x10, 0x0, 0x0, 0x0,
  0xa, 0xff, 0xff, 0xff, 0x0, 0x0, 0x0, 0x1, 0x10, 0x0, 0x0, 0x0,
  0x10, 0x0, 0x0, 0x0, 0x5, 0x0, 0x0, 0x0, 0x40, 0x0, 0x0, 0x0,
  0x90, 0xfe, 0xff, 0xff, 0x30, 0x0, 0x0, 0x0, 0x73, 0x65, 0x71, 0x75,
  0x65, 0x6e, 0x74, 0x69, 0x61, 0x6c, 0x5f, 0x33, 0x5f, 0x31, 0x2f, 0x64,
  0x65, 0x6e, 0x73, 0x65, 0x5f, 0x31, 0x31, 0x5f, 0x31, 0x2f, 0x42, 0x69,
  0x61, 0x73, 0x41, 0x64, 0x64, 0x2f, 0x52, 0x65, 0x61, 0x64, 0x56, 0x61,
  0x72, 0x69, 0x61, 0x62, 0x6c, 0x65, 0x4f, 0x70, 0x0, 0x0, 0x0, 0x0,
  0x1, 0x0, 0x0, 0x0, 0x3, 0x0, 0x0, 0x0, 0x66, 0xff, 0xff, 0xff,
  0x0, 0x0, 0x0, 0x1, 0x10, 0x0, 0x0, 0x0, 0x10, 0x0, 0x0, 0x0,
  0x4, 0x0, 0x0, 0x0, 0x40, 0x0, 0x0, 0x0, 0xec, 0xfe, 0xff, 0xff,
  0x30, 0x0, 0x0, 0x0, 0x73, 0x65, 0x71, 0x75, 0x65, 0x6e, 0x74, 0x69,
  0x61, 0x6c, 0x5f, 0x33, 0x5f, 0x31, 0x2f, 0x64, 0x65, 0x6e, 0x73, 0x65,
  0x5f, 0x31, 0x30, 0x5f, 0x31, 0x2f, 0x42, 0x69, 0x61, 0x73, 0x41, 0x64,
  0x64, 0x2f, 0x52, 0x65, 0x61, 0x64, 0x56, 0x61, 0x72, 0x69, 0x61, 0x62,
  0x6c, 0x65, 0x4f, 0x70, 0x0, 0x0, 0x0, 0x0, 0x1, 0x0, 0x0, 0x0,
  0x8, 0x0, 0x0, 0x0, 0xc2, 0xff, 0xff, 0xff, 0x0, 0x0, 0x0, 0x1,
  0x10, 0x0, 0x0, 0x0, 0x10, 0x0, 0x0, 0x0, 0x3, 0x0, 0x0, 0x0,
  0x1c, 0x0, 0x0, 0x0, 0x48, 0xff, 0xff, 0xff, 0xf, 0x0, 0x0, 0x0,
  0x61, 0x72, 0x69, 0x74, 0x68, 0x2e, 0x63, 0x6f, 0x6e, 0x73, 0x74, 0x61,
  0x6e, 0x74, 0x31, 0x0, 0x2, 0x0, 0x0, 0x0, 0x8, 0x0, 0x0, 0x0,
  0x10, 0x0, 0x0, 0x0, 0x0, 0x0, 0x16, 0x0, 0x18, 0x0, 0x14, 0x0,
  0x0, 0x0, 0x10, 0x0, 0xc, 0x0, 0x8, 0x0, 0x0, 0x0, 0x0, 0x0,
  0x0, 0x0, 0x7, 0x0, 0x16, 0x0, 0x0, 0x0, 0x0, 0x0, 0x0, 0x1,
  0x10, 0x0, 0x0, 0x0, 0x10, 0x0, 0x0, 0x0, 0x2, 0x0, 0x0, 0x0,
  0x1c, 0x0, 0x0, 0x0, 0x9c, 0xff, 0xff, 0xff, 0xe, 0x0, 0x0, 0x0,
  0x61, 0x72, 0x69, 0x74, 0x68, 0x2e, 0x63, 0x6f, 0x6e, 0x73, 0x74, 0x61,
  0x6e, 0x74, 0x0, 0x0, 0x2, 0x0, 0x0, 0x0, 0x3, 0x0, 0x0, 0x0,
  0x8, 0x0, 0x0, 0x0, 0x0, 0x0, 0x16, 0x0, 0x1c, 0x0, 0x18, 0x0,
  0x0, 0x0, 0x14, 0x0, 0x10, 0x0, 0xc, 0x0, 0x0, 0x0, 0x0, 0x0,
  0x8, 0x0, 0x7, 0x0, 0x16, 0x0, 0x0, 0x0, 0x0, 0x0, 0x0, 0x1,
  0x14, 0x0, 0x0, 0x0, 0x20, 0x0, 0x0, 0x0, 0x20, 0x0, 0x0, 0x0,
  0x1, 0x0, 0x0, 0x0, 0x40, 0x0, 0x0, 0x0, 0x2, 0x0, 0x0, 0x0,
  0xff, 0xff, 0xff, 0xff, 0x3, 0x0, 0x0, 0x0, 0x4, 0x0, 0x4, 0x0,
  0x4, 0x0, 0x0, 0x0, 0x21, 0x0, 0x0, 0x0, 0x73, 0x65, 0x72, 0x76,
  0x69, 0x6e, 0x67, 0x5f, 0x64, 0x65, 0x66, 0x61, 0x75, 0x6c, 0x74, 0x5f,
  0x6b, 0x65, 0x72, 0x61, 0x73, 0x5f, 0x74, 0x65, 0x6e, 0x73, 0x6f, 0x72,
  0x5f, 0x31, 0x32, 0x3a, 0x30, 0x0, 0x0, 0x0, 0x2, 0x0, 0x0, 0x0,
  0x1, 0x0, 0x0, 0x0, 0x3, 0x0, 0x0, 0x0, 0x2, 0x0, 0x0, 0x0,
  0x20, 0x0, 0x0, 0x0, 0x4, 0x0, 0x0, 0x0, 0xf4, 0xff, 0xff, 0xff,
  0x19, 0x0, 0x0, 0x0, 0x0, 0x0, 0x0, 0x19, 0xc, 0x0, 0xc, 0x0,
  0xb, 0x0, 0x0, 0x0, 0x0, 0x0, 0x4, 0x0, 0xc, 0x0, 0x0, 0x0,
  0x9, 0x0, 0x0, 0x0, 0x0, 0x0, 0x0, 0x9,
};
const int model_data_len = 3104;
